/*
 * (C) Copyright 2025 Synaptics Incorporated. All rights reserved.
 *
 * This program is the proprietary software of Synaptics and/or its licensors,
 * and may only be used, duplicated, modified or distributed under the authorized
 * license from Synaptics.
 * ANY USE OF THE SOFTWARE OTHER THAN AS AUTHORIZED UNDER THIS LICENSE OR
 * COPYRIGHT LAW IS PROHIBITED.
 */

/*********************    Autogenerated file. DO NOT EDIT *******************
 * Generated from hello_world.tflite file.
 * Date: 2025-07-28 17:04:56.703310
 ***************************************************************************/

#include <cstddef>
#include <cstdint>

#include "inference_attributes.hpp"
#include "tensorflow/lite/micro/micro_mutable_op_resolver.h"


namespace model {


static const uint8_t MODEL_TFLITE_ATTRIBUTE nn_model[2736] =
{
0x28, 0x00, 0x00, 0x00, 0x54, 0x46, 0x4c, 0x33, 0x00, 0x00, 0x00, 0x00, 0x00, 0x00, 0x00, 0x00, 0x00, 0x00, 0x00, 0x00, 0x00, 0x00, 0x12, 0x00, 0x1c, 0x00, 0x18, 0x00, 0x14, 0x00, 0x10, 0x00, 
0x0c, 0x00, 0x08, 0x00, 0x00, 0x00, 0x04, 0x00, 0x12, 0x00, 0x00, 0x00, 0x18, 0x00, 0x00, 0x00, 0x98, 0x00, 0x00, 0x00, 0x30, 0x0a, 0x00, 0x00, 0x80, 0x07, 0x00, 0x00, 0x44, 0x0a, 0x00, 0x00, 
0x03, 0x00, 0x00, 0x00, 0x03, 0x00, 0x00, 0x00, 0x5c, 0x00, 0x00, 0x00, 0x30, 0x00, 0x00, 0x00, 0x04, 0x00, 0x00, 0x00, 0xb8, 0xff, 0xff, 0xff, 0x05, 0x00, 0x00, 0x00, 0x04, 0x00, 0x00, 0x00, 
0x17, 0x00, 0x00, 0x00, 0x4f, 0x66, 0x66, 0x6c, 0x69, 0x6e, 0x65, 0x4d, 0x65, 0x6d, 0x6f, 0x72, 0x79, 0x41, 0x6c, 0x6c, 0x6f, 0x63, 0x61, 0x74, 0x69, 0x6f, 0x6e, 0x00, 0xe0, 0xff, 0xff, 0xff, 
0x04, 0x00, 0x00, 0x00, 0x04, 0x00, 0x00, 0x00, 0x0c, 0x00, 0x00, 0x00, 0x76, 0x65, 0x6c, 0x61, 0x5f, 0x76, 0x65, 0x72, 0x73, 0x69, 0x6f, 0x6e, 0x00, 0x00, 0x00, 0x00, 0x08, 0x00, 0x0c, 0x00, 
0x08, 0x00, 0x04, 0x00, 0x08, 0x00, 0x00, 0x00, 0x03, 0x00, 0x00, 0x00, 0x04, 0x00, 0x00, 0x00, 0x13, 0x00, 0x00, 0x00, 0x6d, 0x69, 0x6e, 0x5f, 0x72, 0x75, 0x6e, 0x74, 0x69, 0x6d, 0x65, 0x5f, 
0x76, 0x65, 0x72, 0x73, 0x69, 0x6f, 0x6e, 0x00, 0x06, 0x00, 0x00, 0x00, 0xe8, 0x06, 0x00, 0x00, 0xe4, 0x04, 0x00, 0x00, 0x80, 0x00, 0x00, 0x00, 0x5c, 0x00, 0x00, 0x00, 0x38, 0x00, 0x00, 0x00, 
0x04, 0x00, 0x00, 0x00, 0x36, 0xfb, 0xff, 0xff, 0x04, 0x00, 0x00, 0x00, 0x24, 0x00, 0x00, 0x00, 0x00, 0x00, 0x00, 0x00, 0x01, 0x00, 0x00, 0x00, 0x06, 0x00, 0x00, 0x00, 0x10, 0x00, 0x00, 0x00, 
0xff, 0xff, 0xff, 0xff, 0xff, 0xff, 0xff, 0xff, 0x00, 0x00, 0x00, 0x00, 0x00, 0x00, 0x00, 0x00, 0x00, 0x00, 0x00, 0x00, 0x66, 0xfb, 0xff, 0xff, 0x04, 0x00, 0x00, 0x00, 0x05, 0x00, 0x00, 0x00, 
0x34, 0x2e, 0x33, 0x2e, 0x30, 0x00, 0x00, 0x00, 0x00, 0x00, 0x00, 0x00, 0x00, 0x00, 0x00, 0x00, 0x00, 0x00, 0x00, 0x00, 0x86, 0xfb, 0xff, 0xff, 0x04, 0x00, 0x00, 0x00, 0x10, 0x00, 0x00, 0x00, 
0x31, 0x2e, 0x31, 0x34, 0x2e, 0x30, 0x00, 0x00, 0x00, 0x00, 0x00, 0x00, 0x00, 0x00, 0x00, 0x00, 0x00, 0x00, 0x00, 0x00, 0xa6, 0xfb, 0xff, 0xff, 0x04, 0x00, 0x00, 0x00, 0x40, 0x04, 0x00, 0x00, 
0x00, 0x00, 0x00, 0x00, 0x00, 0x00, 0x00, 0x00, 0x00, 0x00, 0x00, 0x00, 0x00, 0x00, 0x00, 0x00, 0x00, 0x00, 0x00, 0x00, 0x00, 0x00, 0x00, 0x00, 0x00, 0x00, 0x00, 0x00, 0x00, 0x00, 0x00, 0x00, 
0x00, 0x00, 0x00, 0x00, 0x00, 0x00, 0x00, 0x00, 0x00, 0x00, 0x00, 0x00, 0x00, 0x00, 0x00, 0x00, 0x00, 0x00, 0x00, 0x00, 0x00, 0x00, 0x00, 0x00, 0x00, 0x00, 0x00, 0x00, 0x00, 0x00, 0x00, 0x00, 
0x00, 0x00, 0x00, 0x00, 0x00, 0x00, 0x00, 0x00, 0x00, 0x00, 0x00, 0x00, 0x00, 0x00, 0x00, 0x00, 0x00, 0x00, 0x00, 0x00, 0x00, 0x00, 0x00, 0x00, 0x00, 0x00, 0x00, 0x00, 0x00, 0x00, 0x00, 0x00, 
0x00, 0x00, 0x00, 0x00, 0x00, 0x00, 0x00, 0x00, 0x00, 0x00, 0x00, 0x00, 0x00, 0x00, 0x00, 0x00, 0x00, 0x00, 0x00, 0x00, 0x00, 0x00, 0x00, 0x00, 0x00, 0x00, 0x00, 0x00, 0x00, 0x00, 0x00, 0x00, 
0x00, 0x00, 0x00, 0x00, 0x00, 0x00, 0x00, 0x00, 0x00, 0x00, 0x00, 0x00, 0x00, 0x00, 0x00, 0x00, 0x00, 0x00, 0x00, 0x00, 0x00, 0x00, 0x00, 0x00, 0x00, 0x00, 0x00, 0x00, 0x00, 0x00, 0x00, 0x00, 
0x00, 0x00, 0x00, 0x00, 0x00, 0x00, 0x00, 0x00, 0x00, 0x00, 0x00, 0x00, 0x00, 0x00, 0x00, 0x00, 0x00, 0x00, 0x00, 0x00, 0x00, 0x00, 0x00, 0x00, 0x00, 0x00, 0x00, 0x00, 0x00, 0x00, 0x00, 0x00, 
0x00, 0x00, 0x00, 0x00, 0x00, 0x00, 0x00, 0x00, 0x00, 0x00, 0x00, 0x00, 0x00, 0x00, 0x00, 0x00, 0x00, 0x00, 0x00, 0x00, 0x00, 0x00, 0x00, 0x00, 0x00, 0x00, 0x00, 0x00, 0x00, 0x00, 0x00, 0x00, 
0x00, 0x00, 0x00, 0x00, 0x00, 0x00, 0x00, 0x00, 0x00, 0x00, 0x00, 0x00, 0x00, 0x00, 0x00, 0x00, 0x00, 0x00, 0x00, 0x00, 0x00, 0x00, 0x00, 0x00, 0x00, 0x00, 0x00, 0x00, 0x00, 0x00, 0x00, 0x00, 
0x00, 0x00, 0x00, 0x00, 0x00, 0x00, 0x00, 0x00, 0x00, 0x00, 0x00, 0x00, 0x00, 0x00, 0x00, 0x00, 0x00, 0x00, 0x00, 0x00, 0x00, 0x00, 0x00, 0x00, 0x00, 0x00, 0x00, 0x00, 0x00, 0x00, 0x00, 0x00, 
0x00, 0x00, 0x00, 0x00, 0x00, 0x00, 0x00, 0x00, 0x00, 0x00, 0x00, 0x00, 0x00, 0x00, 0x00, 0x00, 0x00, 0x00, 0x00, 0x00, 0x00, 0x00, 0x00, 0x00, 0x00, 0x00, 0x00, 0x00, 0x00, 0x00, 0x00, 0x00, 
0x00, 0x00, 0x00, 0x00, 0x00, 0x00, 0x00, 0x00, 0x00, 0x00, 0x00, 0x00, 0x00, 0x00, 0x00, 0x00, 0x06, 0x00, 0x00, 0x00, 0x00, 0xd4, 0x5a, 0xb5, 0x45, 0x25, 0x77, 0x0b, 0x00, 0x00, 0x00, 0xd4, 
0x5a, 0xb5, 0x45, 0x25, 0x53, 0xf6, 0xff, 0xff, 0xff, 0xd4, 0x5a, 0xb5, 0x45, 0x25, 0x00, 0x00, 0x00, 0x00, 0x00, 0xd4, 0x5a, 0xb5, 0x45, 0x25, 0x77, 0x0c, 0x00, 0x00, 0x00, 0xd4, 0x5a, 0xb5, 
0x45, 0x25, 0x00, 0x00, 0x00, 0x00, 0x00, 0xd4, 0x5a, 0xb5, 0x45, 0x25, 0x00, 0x00, 0x00, 0x00, 0x00, 0xd4, 0x5a, 0xb5, 0x45, 0x25, 0xd3, 0x06, 0x00, 0x00, 0x00, 0xd4, 0x5a, 0xb5, 0x45, 0x25, 
0x00, 0x00, 0x00, 0x00, 0x00, 0xd4, 0x5a, 0xb5, 0x45, 0x25, 0x00, 0x00, 0x00, 0x00, 0x00, 0xd4, 0x5a, 0xb5, 0x45, 0x25, 0x72, 0x21, 0x00, 0x00, 0x00, 0xd4, 0x5a, 0xb5, 0x45, 0x25, 0x00, 0x00, 
0x00, 0x00, 0x00, 0xd4, 0x5a, 0xb5, 0x45, 0x25, 0x2f, 0x07, 0x00, 0x00, 0x00, 0xd4, 0x5a, 0xb5, 0x45, 0x25, 0x67, 0xf5, 0xff, 0xff, 0xff, 0xd4, 0x5a, 0xb5, 0x45, 0x25, 0x34, 0xf0, 0xff, 0xff, 
0xff, 0xd4, 0x5a, 0xb5, 0x45, 0x25, 0x00, 0x00, 0x00, 0x00, 0x00, 0xd4, 0x5a, 0xb5, 0x45, 0x25, 0x7b, 0x00, 0xdc, 0xf2, 0xfc, 0x0f, 0xaf, 0x2e, 0x7c, 0xdb, 0x49, 0x98, 0x75, 0x35, 0xf4, 0x83, 
0x23, 0x23, 0x82, 0x51, 0x00, 0xf0, 0x2f, 0xdb, 0xea, 0x40, 0xf6, 0x78, 0x85, 0xff, 0xff, 0xff, 0x3f, 0xc1, 0xf9, 0x0f, 0xf0, 0xff, 0xff, 0xff, 0xff, 0xff, 0x0f, 0xf0, 0xff, 0xff, 0xff, 0xff, 
0x00, 0x00, 0x00, 0x00, 0x00, 0x56, 0xcd, 0x49, 0x6b, 0x24, 0xb5, 0x04, 0x00, 0x00, 0x00, 0x56, 0xcd, 0x49, 0x6b, 0x24, 0x78, 0x0a, 0x00, 0x00, 0x00, 0x56, 0xcd, 0x49, 0x6b, 0x24, 0x2d, 0x06, 
0x00, 0x00, 0x00, 0x56, 0xcd, 0x49, 0x6b, 0x24, 0x71, 0xf8, 0xff, 0xff, 0xff, 0x56, 0xcd, 0x49, 0x6b, 0x24, 0x00, 0x00, 0x00, 0x00, 0x00, 0x56, 0xcd, 0x49, 0x6b, 0x24, 0x99, 0x0a, 0x00, 0x00, 
0x00, 0x56, 0xcd, 0x49, 0x6b, 0x24, 0xfe, 0xf7, 0xff, 0xff, 0xff, 0x56, 0xcd, 0x49, 0x6b, 0x24, 0x0f, 0x05, 0x00, 0x00, 0x00, 0x56, 0xcd, 0x49, 0x6b, 0x24, 0xd4, 0x09, 0x00, 0x00, 0x00, 0x56, 
0xcd, 0x49, 0x6b, 0x24, 0x47, 0xfe, 0xff, 0xff, 0xff, 0x56, 0xcd, 0x49, 0x6b, 0x24, 0xb6, 0x04, 0x00, 0x00, 0x00, 0x56, 0xcd, 0x49, 0x6b, 0x24, 0x00, 0x00, 0x00, 0x00, 0x00, 0x56, 0xcd, 0x49, 
0x6b, 0x24, 0xac, 0xf7, 0xff, 0xff, 0xff, 0x56, 0xcd, 0x49, 0x6b, 0x24, 0x4b, 0xf9, 0xff, 0xff, 0xff, 0x56, 0xcd, 0x49, 0x6b, 0x24, 0x4a, 0x05, 0x00, 0x00, 0x00, 0x56, 0xcd, 0x49, 0x6b, 0x24, 
0xd0, 0x03, 0x54, 0xf1, 0x9b, 0xd2, 0xad, 0x4c, 0x0d, 0x46, 0xd1, 0x56, 0xa3, 0xc9, 0x5a, 0x1c, 0x8c, 0xe2, 0x40, 0x08, 0xe2, 0x60, 0xa5, 0x51, 0xe8, 0xb3, 0xc9, 0x58, 0x26, 0x89, 0x81, 0x60, 
0x06, 0xb1, 0x04, 0xb0, 0xa3, 0xeb, 0xa2, 0x1c, 0x38, 0x56, 0xc1, 0x11, 0xca, 0x01, 0x01, 0x8a, 0x99, 0x6b, 0x76, 0x52, 0x4c, 0x81, 0x05, 0xa0, 0xe2, 0xe8, 0xad, 0xf0, 0xb5, 0x19, 0x80, 0x45, 
0x00, 0xe0, 0xc1, 0x31, 0xb0, 0x46, 0x6c, 0xa7, 0x52, 0x0e, 0x00, 0xcc, 0x84, 0xaf, 0xe2, 0xe4, 0x74, 0x2b, 0x8b, 0xec, 0xac, 0x73, 0x7c, 0x4d, 0x78, 0x2a, 0x80, 0xc8, 0x85, 0xb3, 0x86, 0x1e, 
0xf1, 0x66, 0xc0, 0x79, 0x08, 0x00, 0x3e, 0x79, 0xd5, 0x1a, 0x50, 0x20, 0xa2, 0xe9, 0x08, 0x00, 0x6d, 0xfb, 0xb5, 0x9f, 0xb9, 0xa6, 0xa7, 0xd7, 0xbc, 0x19, 0x17, 0xbd, 0xd2, 0x26, 0x00, 0xf0, 
0xb4, 0x98, 0x2e, 0x4f, 0x2b, 0x3d, 0x01, 0x82, 0xab, 0x51, 0x30, 0x63, 0xaa, 0x1e, 0x0e, 0x3f, 0xcf, 0xac, 0x7d, 0x6a, 0x7f, 0x01, 0x00, 0xff, 0xc5, 0x10, 0x61, 0x79, 0x80, 0xff, 0x4f, 0xf7, 
0xff, 0xff, 0xff, 0xff, 0xff, 0xff, 0xff, 0xff, 0xff, 0xff, 0xff, 0xff, 0xff, 0x3f, 0xc0, 0x00, 0x00, 0x25, 0x00, 0x00, 0x76, 0x00, 0x0f, 0x50, 0x06, 0x16, 0x11, 0x6c, 0x11, 0xb8, 0x22, 0x90, 
0x87, 0x53, 0xd1, 0x21, 0x00, 0x83, 0x68, 0x3d, 0xf3, 0x34, 0xac, 0x6c, 0x48, 0x00, 0x80, 0x6e, 0xf8, 0x2e, 0xe8, 0x0c, 0xc7, 0x04, 0x76, 0xfa, 0x02, 0x00, 0x40, 0x70, 0x76, 0x21, 0x24, 0xb1, 
0x15, 0x1f, 0x00, 0xc0, 0x4e, 0x47, 0xb6, 0xca, 0xac, 0x56, 0x89, 0x80, 0x00, 0x00, 0x8c, 0xea, 0x26, 0x34, 0x88, 0xf0, 0x04, 0x01, 0xb8, 0xb7, 0x80, 0x16, 0x0c, 0xfb, 0x3a, 0x2f, 0x91, 0x76, 
0x30, 0x35, 0xf2, 0x56, 0xa1, 0x36, 0x09, 0x00, 0xb6, 0xc7, 0x05, 0x6d, 0x00, 0x84, 0xd2, 0x79, 0x00, 0x8c, 0x0b, 0xbb, 0xb9, 0xf9, 0x34, 0xe7, 0xb2, 0x1d, 0x3c, 0x06, 0x09, 0xfe, 0x5c, 0x06, 
0x01, 0xe0, 0x5b, 0x40, 0x8f, 0x0f, 0xc5, 0x00, 0x00, 0xb0, 0x14, 0x82, 0x36, 0x49, 0x66, 0x15, 0xa9, 0x0d, 0x00, 0x50, 0x00, 0xe0, 0xff, 0x3f, 0x03, 0xe0, 0xff, 0xff, 0xff, 0xff, 0xff, 0xff, 
0x8c, 0xef, 0xff, 0xff, 0xff, 0xce, 0xa3, 0xc1, 0x60, 0x26, 0x00, 0x00, 0x00, 0x00, 0x00, 0x00, 0x71, 0x00, 0xdc, 0xef, 0x5c, 0xf6, 0xbf, 0x7e, 0xcc, 0x7b, 0x8b, 0x1a, 0x4a, 0xd8, 0xe6, 0x35, 
0x24, 0xe4, 0xa3, 0x03, 0xf0, 0xff, 0xcf, 0x25, 0x49, 0x0e, 0x38, 0xd0, 0x07, 0xf0, 0xff, 0x6b, 0x0a, 0x00, 0x00, 0x03, 0x00, 0x9c, 0xff, 0xff, 0xf8, 0xc3, 0xff, 0xff, 0xff, 0xff, 0xff, 0xff, 
0x00, 0x00, 0x00, 0x00, 0x00, 0x00, 0x00, 0x00, 0x00, 0x00, 0x00, 0x00, 0x00, 0x00, 0x06, 0x00, 0x08, 0x00, 0x04, 0x00, 0x06, 0x00, 0x00, 0x00, 0x04, 0x00, 0x00, 0x00, 0xf0, 0x01, 0x00, 0x00, 
0x43, 0x4f, 0x50, 0x31, 0x01, 0x00, 0x10, 0x00, 0x07, 0x18, 0x00, 0x00, 0x00, 0x00, 0x06, 0x10, 0x05, 0x00, 0x00, 0x00, 0x05, 0x00, 0x00, 0x00, 0x05, 0x00, 0x00, 0x00, 0x02, 0x00, 0x74, 0x00, 
0x0f, 0x01, 0x01, 0x00, 0x00, 0x40, 0x00, 0x00, 0x00, 0x00, 0x00, 0x00, 0x01, 0x40, 0x00, 0x00, 0x00, 0x00, 0x00, 0x00, 0x02, 0x40, 0x00, 0x00, 0x00, 0x00, 0x00, 0x00, 0x03, 0x40, 0x00, 0x00, 
0x00, 0x00, 0x00, 0x00, 0x0b, 0x01, 0x00, 0x00, 0x0c, 0x01, 0x00, 0x00, 0x0a, 0x01, 0x00, 0x00, 0x04, 0x01, 0x00, 0x00, 0x06, 0x40, 0x00, 0x00, 0x01, 0x00, 0x00, 0x00, 0x05, 0x40, 0x00, 0x00, 
0x01, 0x00, 0x00, 0x00, 0x04, 0x40, 0x00, 0x00, 0x01, 0x00, 0x00, 0x00, 0x09, 0x01, 0x80, 0xff, 0x05, 0x01, 0x01, 0x00, 0x07, 0x01, 0x00, 0x00, 0x00, 0x01, 0x00, 0x00, 0x01, 0x01, 0x00, 0x00, 
0x03, 0x01, 0x00, 0x00, 0x02, 0x01, 0x00, 0x00, 0x1f, 0x01, 0x01, 0x00, 0x10, 0x40, 0x00, 0x00, 0x10, 0x00, 0x00, 0x00, 0x11, 0x40, 0x00, 0x00, 0x00, 0x00, 0x00, 0x00, 0x12, 0x40, 0x00, 0x00, 
0x00, 0x00, 0x00, 0x00, 0x13, 0x40, 0x00, 0x00, 0x00, 0x00, 0x00, 0x00, 0x1b, 0x01, 0x00, 0x00, 0x1c, 0x01, 0x00, 0x00, 0x1a, 0x01, 0x00, 0x00, 0x12, 0x01, 0x00, 0x00, 0x11, 0x01, 0x00, 0x00, 
0x13, 0x01, 0x0f, 0x00, 0x16, 0x40, 0x00, 0x00, 0x10, 0x00, 0x00, 0x00, 0x15, 0x40, 0x00, 0x00, 0x10, 0x00, 0x00, 0x00, 0x14, 0x40, 0x00, 0x00, 0x10, 0x00, 0x00, 0x00, 0x18, 0x01, 0x80, 0xff, 
0x14, 0x01, 0x41, 0x00, 0x21, 0x01, 0x00, 0x00, 0x20, 0x01, 0x00, 0x00, 0x22, 0x01, 0x00, 0x00, 0x28, 0x01, 0x00, 0x00, 0x20, 0x40, 0x00, 0x00, 0xf0, 0x01, 0x00, 0x00, 0x21, 0x40, 0x00, 0x00, 
0x30, 0x00, 0x00, 0x00, 0x29, 0x01, 0x00, 0x00, 0x22, 0x40, 0x00, 0x00, 0x50, 0x01, 0x00, 0x00, 0x23, 0x40, 0x00, 0x00, 0xa0, 0x00, 0x00, 0x00, 0x25, 0x01, 0x00, 0x00, 0x26, 0x01, 0x80, 0xff, 
0x27, 0x01, 0x7f, 0x00, 0x16, 0x01, 0x00, 0x00, 0x15, 0x01, 0x01, 0x00, 0x17, 0x01, 0x0f, 0x00, 0x0d, 0x01, 0x06, 0x00, 0x2d, 0x01, 0x0e, 0x00, 0x24, 0x01, 0x00, 0x00, 0x2f, 0x01, 0x00, 0x00, 
0x02, 0x00, 0x00, 0x00, 0x00, 0x40, 0x00, 0x00, 0x10, 0x00, 0x00, 0x00, 0x04, 0x01, 0x0f, 0x00, 0x06, 0x40, 0x00, 0x00, 0x10, 0x00, 0x00, 0x00, 0x05, 0x40, 0x00, 0x00, 0x10, 0x00, 0x00, 0x00, 
0x04, 0x40, 0x00, 0x00, 0x10, 0x00, 0x00, 0x00, 0x05, 0x01, 0x41, 0x00, 0x10, 0x40, 0x00, 0x00, 0x00, 0x00, 0x00, 0x00, 0x20, 0x40, 0x00, 0x00, 0xc0, 0x02, 0x00, 0x00, 0x21, 0x40, 0x00, 0x00, 
0x40, 0x01, 0x00, 0x00, 0x22, 0x40, 0x00, 0x00, 0x20, 0x02, 0x00, 0x00, 0x02, 0x00, 0x00, 0x00, 0x00, 0x40, 0x00, 0x00, 0x00, 0x00, 0x00, 0x00, 0x10, 0x40, 0x00, 0x00, 0x10, 0x00, 0x00, 0x00, 
0x13, 0x01, 0x00, 0x00, 0x16, 0x40, 0x00, 0x00, 0x01, 0x00, 0x00, 0x00, 0x15, 0x40, 0x00, 0x00, 0x01, 0x00, 0x00, 0x00, 0x14, 0x40, 0x00, 0x00, 0x01, 0x00, 0x00, 0x00, 0x18, 0x01, 0x04, 0x00, 
0x14, 0x01, 0x01, 0x00, 0x20, 0x40, 0x00, 0x00, 0x10, 0x04, 0x00, 0x00, 0x21, 0x40, 0x00, 0x00, 0x30, 0x00, 0x00, 0x00, 0x22, 0x40, 0x00, 0x00, 0x00, 0x04, 0x00, 0x00, 0x23, 0x40, 0x00, 0x00, 
0x10, 0x00, 0x00, 0x00, 0x17, 0x01, 0x07, 0x00, 0x02, 0x00, 0x00, 0x00, 0x00, 0x00, 0xff, 0xff, 0x04, 0x00, 0x04, 0x00, 0x04, 0x00, 0x00, 0x00, 0x01, 0x00, 0x00, 0x00, 0x14, 0x00, 0x00, 0x00, 
0x00, 0x00, 0x0e, 0x00, 0x18, 0x00, 0x14, 0x00, 0x10, 0x00, 0x0c, 0x00, 0x08, 0x00, 0x04, 0x00, 0x0e, 0x00, 0x00, 0x00, 0x84, 0x02, 0x00, 0x00, 0x10, 0x00, 0x00, 0x00, 0x74, 0x00, 0x00, 0x00, 
0x78, 0x00, 0x00, 0x00, 0x7c, 0x00, 0x00, 0x00, 0x01, 0x00, 0x00, 0x00, 0x1c, 0x00, 0x00, 0x00, 0x00, 0x00, 0x16, 0x00, 0x18, 0x00, 0x00, 0x00, 0x14, 0x00, 0x10, 0x00, 0x00, 0x00, 0x00, 0x00, 
0x08, 0x00, 0x00, 0x00, 0x04, 0x00, 0x0c, 0x00, 0x16, 0x00, 0x00, 0x00, 0x14, 0x00, 0x00, 0x00, 0x14, 0x00, 0x00, 0x00, 0x18, 0x00, 0x00, 0x00, 0x18, 0x00, 0x00, 0x00, 0x1c, 0x00, 0x00, 0x00, 
0x00, 0x00, 0x00, 0x00, 0x03, 0x00, 0x00, 0x00, 0x01, 0x04, 0x01, 0x00, 0x00, 0x00, 0x00, 0x00, 0x01, 0x00, 0x00, 0x00, 0x00, 0x00, 0x00, 0x00, 0x05, 0x00, 0x00, 0x00, 0x01, 0x00, 0x00, 0x00, 
0x02, 0x00, 0x00, 0x00, 0x03, 0x00, 0x00, 0x00, 0x04, 0x00, 0x00, 0x00, 0x05, 0x00, 0x00, 0x00, 0x01, 0x00, 0x00, 0x00, 0x00, 0x00, 0x00, 0x00, 0x01, 0x00, 0x00, 0x00, 0x05, 0x00, 0x00, 0x00, 
0x06, 0x00, 0x00, 0x00, 0x84, 0x01, 0x00, 0x00, 0x34, 0x01, 0x00, 0x00, 0xf0, 0x00, 0x00, 0x00, 0xb8, 0x00, 0x00, 0x00, 0x70, 0x00, 0x00, 0x00, 0x04, 0x00, 0x00, 0x00, 0xa2, 0xfe, 0xff, 0xff, 
0x10, 0x00, 0x00, 0x00, 0x30, 0x00, 0x00, 0x00, 0x00, 0x00, 0x00, 0x09, 0x4c, 0x00, 0x00, 0x00, 0x94, 0xfe, 0xff, 0xff, 0x08, 0x00, 0x00, 0x00, 0x14, 0x00, 0x00, 0x00, 0x01, 0x00, 0x00, 0x00, 
0x80, 0xff, 0xff, 0xff, 0xff, 0xff, 0xff, 0xff, 0x00, 0x00, 0x00, 0x00, 0x01, 0x00, 0x00, 0x00, 0x5d, 0x4f, 0xc9, 0x3c, 0x1f, 0x00, 0x00, 0x00, 0x73, 0x65, 0x72, 0x76, 0x69, 0x6e, 0x67, 0x5f, 
0x64, 0x65, 0x66, 0x61, 0x75, 0x6c, 0x74, 0x5f, 0x64, 0x65, 0x6e, 0x73, 0x65, 0x5f, 0x32, 0x5f, 0x69, 0x6e, 0x70, 0x75, 0x74, 0x3a, 0x30, 0x00, 0x02, 0x00, 0x00, 0x00, 0x01, 0x00, 0x00, 0x00, 
0x01, 0x00, 0x00, 0x00, 0xc8, 0xff, 0xff, 0xff, 0x0c, 0x00, 0x00, 0x00, 0x00, 0x00, 0x00, 0x03, 0x24, 0x00, 0x00, 0x00, 0x19, 0x00, 0x00, 0x00, 0x6d, 0x61, 0x69, 0x6e, 0x5f, 0x73, 0x70, 0x6c, 
0x69, 0x74, 0x5f, 0x31, 0x5f, 0x73, 0x63, 0x72, 0x61, 0x74, 0x63, 0x68, 0x5f, 0x66, 0x61, 0x73, 0x74, 0x00, 0x00, 0x00, 0x01, 0x00, 0x00, 0x00, 0x20, 0x00, 0x00, 0x00, 0x0c, 0x00, 0x10, 0x00, 
0x0c, 0x00, 0x0b, 0x00, 0x00, 0x00, 0x04, 0x00, 0x0c, 0x00, 0x00, 0x00, 0x0c, 0x00, 0x00, 0x00, 0x00, 0x00, 0x00, 0x03, 0x20, 0x00, 0x00, 0x00, 0x14, 0x00, 0x00, 0x00, 0x6d, 0x61, 0x69, 0x6e, 
0x5f, 0x73, 0x70, 0x6c, 0x69, 0x74, 0x5f, 0x31, 0x5f, 0x73, 0x63, 0x72, 0x61, 0x74, 0x63, 0x68, 0x00, 0x00, 0x00, 0x00, 0x01, 0x00, 0x00, 0x00, 0x20, 0x00, 0x00, 0x00, 0xcc, 0xff, 0xff, 0xff, 
0x10, 0x00, 0x00, 0x00, 0x02, 0x00, 0x00, 0x00, 0x00, 0x00, 0x00, 0x03, 0x1c, 0x00, 0x00, 0x00, 0x12, 0x00, 0x00, 0x00, 0x6d, 0x61, 0x69, 0x6e, 0x5f, 0x73, 0x70, 0x6c, 0x69, 0x74, 0x5f, 0x31, 
0x5f, 0x66, 0x6c, 0x61, 0x73, 0x68, 0x00, 0x00, 0x01, 0x00, 0x00, 0x00, 0x40, 0x04, 0x00, 0x00, 0x0c, 0x00, 0x14, 0x00, 0x10, 0x00, 0x0f, 0x00, 0x08, 0x00, 0x04, 0x00, 0x0c, 0x00, 0x00, 0x00, 
0x10, 0x00, 0x00, 0x00, 0x01, 0x00, 0x00, 0x00, 0x00, 0x00, 0x00, 0x03, 0x24, 0x00, 0x00, 0x00, 0x1b, 0x00, 0x00, 0x00, 0x6d, 0x61, 0x69, 0x6e, 0x5f, 0x73, 0x70, 0x6c, 0x69, 0x74, 0x5f, 0x31, 
0x5f, 0x63, 0x6f, 0x6d, 0x6d, 0x61, 0x6e, 0x64, 0x5f, 0x73, 0x74, 0x72, 0x65, 0x61, 0x6d, 0x00, 0x01, 0x00, 0x00, 0x00, 0xf0, 0x01, 0x00, 0x00, 0x00, 0x00, 0x0e, 0x00, 0x14, 0x00, 0x10, 0x00, 
0x0f, 0x00, 0x00, 0x00, 0x08, 0x00, 0x04, 0x00, 0x0e, 0x00, 0x00, 0x00, 0x1c, 0x00, 0x00, 0x00, 0x3c, 0x00, 0x00, 0x00, 0x00, 0x00, 0x00, 0x09, 0x54, 0x00, 0x00, 0x00, 0x0c, 0x00, 0x0c, 0x00, 
0x00, 0x00, 0x00, 0x00, 0x08, 0x00, 0x04, 0x00, 0x0c, 0x00, 0x00, 0x00, 0x08, 0x00, 0x00, 0x00, 0x14, 0x00, 0x00, 0x00, 0x01, 0x00, 0x00, 0x00, 0x04, 0x00, 0x00, 0x00, 0x00, 0x00, 0x00, 0x00, 
0x00, 0x00, 0x00, 0x00, 0x01, 0x00, 0x00, 0x00, 0x2c, 0xce, 0x0a, 0x3c, 0x19, 0x00, 0x00, 0x00, 0x53, 0x74, 0x61, 0x74, 0x65, 0x66, 0x75, 0x6c, 0x50, 0x61, 0x72, 0x74, 0x69, 0x74, 0x69, 0x6f, 
0x6e, 0x65, 0x64, 0x43, 0x61, 0x6c, 0x6c, 0x3a, 0x30, 0x00, 0x00, 0x00, 0x02, 0x00, 0x00, 0x00, 0x01, 0x00, 0x00, 0x00, 0x01, 0x00, 0x00, 0x00, 0x04, 0x00, 0x00, 0x00, 0x6d, 0x61, 0x69, 0x6e, 
0x00, 0x00, 0x00, 0x00, 0x14, 0x00, 0x00, 0x00, 0x56, 0x65, 0x6c, 0x61, 0x20, 0x34, 0x2e, 0x33, 0x2e, 0x30, 0x20, 0x4f, 0x70, 0x74, 0x69, 0x6d, 0x69, 0x73, 0x65, 0x64, 0x00, 0x00, 0x00, 0x00, 
0x01, 0x00, 0x00, 0x00, 0x10, 0x00, 0x00, 0x00, 0x0c, 0x00, 0x10, 0x00, 0x0f, 0x00, 0x04, 0x00, 0x00, 0x00, 0x08, 0x00, 0x0c, 0x00, 0x00, 0x00, 0x0c, 0x00, 0x00, 0x00, 0x20, 0x00, 0x00, 0x00, 
0x00, 0x00, 0x00, 0x20, 0x07, 0x00, 0x00, 0x00, 0x65, 0x74, 0x68, 0x6f, 0x73, 0x2d, 0x75, 0x00, };


const uint8_t * get_model_pointer(void)
{
    return nn_model;
}

size_t get_model_len(void)
{
    return sizeof(nn_model);
}

} /* namespace model */


namespace model {

constexpr int kNumberOperators = 1;
tflite::MicroMutableOpResolver<kNumberOperators> micro_op_resolver;
static bool initialized = false;

tflite::MicroOpResolver& get_resolver(void)
{
  if (initialized == false)
  { 
      micro_op_resolver.AddEthosU();
      initialized = true;
  }

  return micro_op_resolver;
}

}  /* namespace model */